{
  "version": "1.0",
  "truncation": null,
  "padding": null,
  "added_tokens": [
    {
      "id": 151643,
      "content": "<|endoftext|>",
      "single_word": false,
      "lstrip": false,
      "rstrip": false,
      "normalized": false,
      "special": true
    },
    {
      "id": 151644,
      "content": "<|im_start|>",
      "single_word": false,
      "lstrip": false,
      "rstrip": false,
      "normalized": false,
      "special": true
    },
    {
      "id": 151645,
      "content": "<|im_end|>",
      "single_word": false,
      "lstrip": false,
      "rstrip": false,
      "normalized": false,
      "special": true
    },
    {
      "id": 151646,
      "content": "<|object_ref_start|>",
      "single_word": false,
      "lstrip": false,
      "rstrip": false,
      "normalized": false,
      "special": true
    },
    {
      "id": 151647,
      "content": "<|object_ref_end|>",
      "single_word": false,
      "lstrip": false,
      "rstrip": false,
      "normalized": false,
      "special": true
    },
    {
      "id": 151648,
      "content": "<|box_start|>",
      "single_word": false,
      "lstrip": false,
      "rstrip": false,
      "normalized": false,
      "special": true
    },
    {
      "id": 151649,
      "content": "<|box_end|>",
      "single_word": false,
      "lstrip": false,
      "rstrip": false,
      "normalized": false,
      "special": true
    },
    {
      "id": 151650,
      "content": "<|quad_start|>",
      "single_word": false,
      "lstrip": false,
      "rstrip": false,
      "normalized": false,
      "special": true
    },
    {
      "id": 151651,
      "content": "<|quad_end|>",
      "single_word": false,
      "lstrip": false,
      "rstrip": false,
      "normalized": false,
      "special": true
    },
    {
      "id": 151652,
      "content": "<|vision_start|>",
      "single_word": false,
      "lstrip": false,
      "rstrip": false,
      "normalized": false,
      "special": true
    },
    {
      "id": 151653,
      "content": "<|vision_end|>",
      "single_word": false,
      "lstrip": false,
      "rstrip": false,
      "normalized": false,
      "special": true
    },
    {
      "id": 151654,
      "content": "<|vision_pad|>",
      "single_word": false,
      "lstrip": false,
      "rstrip": false,
      "normalized": false,
      "special": true
    },
    {
      "id": 151655,
      "content": "<|image_pad|>",
      "single_word": false,
      "lstrip": false,
      "rstrip": false,
      "normalized": false,
      "special": true
    },
    {
      "id": 151656,
      "content": "<|video_pad|>",
      "single_word": false,
      "lstrip": false,
      "rstrip": false,
      "normalized": false,
      "special": true
    },
    {
      "id": 151657,
      "content": "<tool_call>",
      "single_word": false,
      "lstrip": false,
      "rstrip": false,
      "normalized": false,
      "special": false
    },
    {
      "id": 151658,
      "content": "</tool_call>",
      "single_word": false,
      "lstrip": false,
      "rstrip": false,
      "normalized": false,
      "special": false
    },
    {
      "id": 151659,
      "content": "<|fim_prefix|>",
      "single_word": false,
      "lstrip": false,
      "rstrip": false,
      "normalized": false,
      "special": false
    },
    {
      "id": 151660,
      "content": "<|fim_middle|>",
      "single_word": false,
      "lstrip": false,
      "rstrip": false,
      "normalized": false,
      "special": false
    },
    {
      "id": 151661,
      "content": "<|fim_suffix|>",
      "single_word": false,
      "lstrip": false,
      "rstrip": false,
      "normalized": false,
      "special": false
    },
    {
      "id": 151662,
      "content": "<|fim_pad|>",
      "single_word": false,
      "lstrip": false,
      "rstrip": false,
      "normalized": false,
      "special": false
    },
    {
      "id": 151663,
      "content": "<|repo_name|>",
      "single_word": false,
      "lstrip": false,
      "rstrip": false,
      "normalized": false,
      "special": false
    },
    {
      "id": 151664,
      "content": "<|file_sep|>",
      "single_word": false,
      "lstrip": false,
      "rstrip": false,
      "normalized": false,
      "special": false
    }
  ],
  "normalizer": {
    "type": "NFC"
  },
  "pre_tokenizer": {
    "type": "Sequence",
    "pretokenizers": [
      {
        "type": "Split",
        "pattern": {
          "Regex": "(?i:'s|'t|'re|'ve|'m|'ll|'d)|[^\\r\\n\\p{L}\\p{N}]?\\p{L}+|\\p{N}| ?[^\\s\\p{L}\\p{N}]+[\\r\\n]*|\\s*[\\r\\n]+|\\s+(?!\\S)|\\s+"
        },
        "behavior": "Isolated",
        "invert": false
      },
      {
        "type": "ByteLevel",
        "add_prefix_space": false,
        "trim_offsets": false,
        "use_regex": false
      }
    ]
  },
  "post_processor": {
    "type": "ByteLevel",
    "add_prefix_space": false,
    "trim_offsets": false,
    "use_regex": false
  },
  "decoder": {
    "type": "ByteLevel",
    "add_prefix_space": false,
    "trim_offsets": false,
    "use_regex": false
  },
  "model": {
    "type": "BPE",
    "dropout": null,
    "unk_token": null,
    "continuing_subword_prefix": "",
    "end_of_word_suffix": "",
    "fuse_unk": false,
    "byte_fallback": false,
    "ignore_merges": false,
    "vocab": {
      "!": 0,
      "\"": 1,
      "#": 2,
      "$": 3,
      "%": 4,
      "&": 5,
      "'": 6,
      "(": 7,
      ")": 8,
      "*": 9,
      "+": 10,
      ",": 11,
      "-": 12,
      ".": 13,
      "/": 14,
      "0": 15,
      "1": 16,
      "2": 17,
      "3": 18,
      "4": 19,
      "5": 20,
      "6": 21,
      "7": 22,
      "8": 23,
      "9": 24,
      ":": 25,
      ";": 26,
      "<": 27,
      "=": 28,
      ">": 29,
      "?": 30,
      "@": 31,
      "A": 32,
      "B": 33,
      "C": 34,
      "D": 35,
      "E": 36,
      "F": 37,
      "G": 38,
      "H": 39,
      "I": 40,
      "J": 41,
      "K": 42,
      "L": 43,
      "M": 44,
      "N": 45,
      "O": 46,
      "P": 47,
      "Q": 48,
      "R": 49,
      "S": 50,
      "T": 51,
      "U": 52,
      "V": 53,
      "W": 54,
      "X": 55,
      "Y": 56,
      "Z": 57,
      "[": 58,
      "\\": 59,
      "]": 60,
      "^": 61,
      "_": 62,
      "`": 63,
      "a": 64,
      "b": 65,
      "c": 66,
      "d": 67,
      "e": 68,
      "f": 69,
      "g": 70,
      "h": 71,
      "i": 72,
      "j": 73,
      "k": 74,
      "l": 75,
      "m": 76,
      "n": 77,
      "o": 78,
      "p": 79,
      "q": 80,
      "r": 81,
      "s": 82,
      "t": 83,
      "u": 84,
      "v": 85,
      "w": 86,
      "x": 87,
      "y": 88,
      "z": 89,
      "{": 90,
      "|": 91,
      "}": 92,
      "~": 93,
      "\u00a1": 94,
      "\u00a2": 95,
      "\u00a3": 96,
      "\u00a4": 97,
      "\u00a5": 98,
      "\u00a6": 99,
      "\u00a7": 100,
      "\u00a8": 101,
      "\u00a9": 102,
      "\u00aa": 103,
      "\u00ab": 104,
      "\u00ac": 105,
      "\u00ae": 106,
      "\u00af": 107,
      "\u00b0": 108,
      "\u00b1": 109,
      "\u00b2": 110,
      "\u00b3": 111,
      "\u00b4": 112,
      "\u00b5": 113,
      "\u00b6": 114,
      "\u00b7": 115,
      "\u00b8": 116,
      "\u00b9": 117,
      "\u00ba": 118,
      "\u00bb": 119,
      "\u00bc": 120,
      "\u00bd": 121,
      "\u00be": 122,
      "\u00bf": 123,
      "\u00c0": 124,
      "\u00c1": 125,
      "\u00c2": 126,
      "\u00c3": 127,
      "\u00c4": 128,
      "\u00c5": 129,
      "\u00c6": 130,
      "\u00c7": 131,
      "\u00c8": 132,
      "\u00c9": 133,
      "\u00ca": 134,
      "\u00cb": 135,
      "\u00cc": 136,
      "\u00cd": 137,
      "\u00ce": 138,
      "\u00cf": 139,
      "\u00d0": 140,
      "\u00d1": 141,
      "\u00d2": 142,
      "\u00d3": 143,
      "\u00d4": 144,
      "\u00d5": 145,
      "\u00d6": 146,
      "\u00d7": 147,
      "\u00d8": 148,
      "\u00d9": 149,
      "\u00da": 150,
      "\u00db": 151,
      "\u00dc": 152,
      "\u00dd": 153,
      "\u00de": 154,
      "\u00df": 155,
      "\u00e0": 156,
      "\u00e1": 157,
      "\u00e2": 158,
      "\u00e3": 159,
      "\u00e4": 160,
      "\u00e5": 161,
      "\u00e6": 162,
      "\u00e7": 163,
      "\u00e8": 164,
      "\u00e9": 165,
      "\u00ea": 166,
      "\u00eb": 167,
      "\u00ec": 168,
      "\u00ed": 169,
      "\u00ee": 170,
      "\u00ef": 171,
      "\u00f0": 172,
      "\u00f1": 173,
      "\u00f2": 174,
      "\u00f3": 175,
      "\u00f4": 176,
      "\u00f5": 177,
      "\u00f6": 178,
      "\u00f7": 179,
      "\u00f8": 180,
      "\u00f9": 181,
      "\u00fa": 182,
      "\u00fb": 183,
      "\u00fc": 184,
      "\u00fd": 185,
      "\u00fe": 186,
      "\u00ff": 187,
      "\u0100": 188,
      "\u0101": 189,
      "\u0102": 190,
      "\u0103": 191,
      "\u0104": 192,
      "\u0105": 193,
      "\u0106": 194,
      "\u0107": 195,
      "\u0108": 196,
      "\u0109": 197,
      "\u010a": 198,
      "\u010b": 199,
      "\u010c": 200,
      "\u010d": 201,
      "\u010e": 202,
      "\u010f": 203,
      "\u0110": 204,
      "\u0111": 205,
      "\u0112": 206,
      "\u0113": 207,
      "\u0114": 208,
      "\u0115": 209,
      "\u0116": 210,
      "\u0117": 211,
      "\u0118": 212,
      "\u0119": 213,
      "\u011a": 214,
      "\u011b": 215,
      "\u011c": 216,
      "\u011d": 217,
      "\u011e": 218,
      "\u011f": 219,
      "\u0120": 220,
      "\u0121": 221,
      "\u0122": 222,
      "\u0123": 223,
      "\u0124": 224,
      "\u0125": 225,
      "\u0126": 226,
      "\u0127": 227,
      "\u0128": 228,
      "\u0129": 229,
      "\u012a": 230,
      "\u012b": 231,
      "\u012c": 232,
      "\u012d": 233,
      "\u012e": 234,
      "\u012f": 235,
      "\u0130": 236,
      "\u0131": 237,
      "\u0132": 238,
      "\u0133": 239,
      "\u0134": 240,
      "\u0135": 241,
      "\u0136": 242,
      "\u0137": 243,
      "\u0138": 244,
      "\u0139": 245,
      "\u013a": 246,
      "\u013b": 247,
      "\u013c": 248,
      "\u013d": 249,
      "\u013e": 250,
      "\u013f": 251,
      "\u0140": 252,
      "\u0141": 253,
      "\u0142": 254,
      "\u0143": 255,
      "\u0120\u0120": 256,
      "\u0120\u0120\u0120\u0120": 257,
      "in": 258,
      "\u0120t": 259,
      "er": 261,
      "\u0120\u0120\u0120": 262,
      "on": 263,
      "\u0120a": 264,
      "re": 265,
      "st": 267,
      "en": 268,
      "\u010a\u010a": 271,
      "\u0120c": 272,
      "\u0120s": 274,
      "it": 275,
      "an": 276,
      "ar": 277,
      "\u0120f": 282,
      "ou": 283,
      "is": 285,
      "es": 288,
      "\u0120w": 289,
      "ed": 291,
      "\u0120b": 293,
      "\u0120d": 294,
      "et": 295,
      "\u0120o": 297,
      "\u0109\u0109": 298,
      "as": 300,
      "nd": 303,
      "\u0120h": 305,
      "\u0120n": 308,
      "am": 309,
      "\u0120re": 312,
      "--": 313,
      "im": 318,
      "\u010d\u010a": 319,
      "\u0120(": 320,
      "se": 325,
      "ex": 327,
      "ad": 329,
      "ce": 346,
      "ay": 352,
      "us": 355,
      "\u0120C": 356,
      "\u0120I": 358,
      "ue": 361,
      "\u0120A": 362,
      "\u0120<": 366,
      "ab": 370,
      "ame": 373,
      "pe": 375,
      "\u00e2\u0122": 378,
      "\u0120y": 379,
      "ist": 380,
      "he": 383,
      "lo": 385,
      "ass": 395,
      ">\u010a": 397,
      "ir": 404,
      "nt": 406,
      "end": 408,
      "\u0120\u0120\u0120\u0120\u0120": 414,
      "ext": 427,
      "\u0120r": 435,
      "de": 450,
      "ter": 465,
      "\u0120W": 467,
      "art": 471,
      "\u0120H": 472,
      "\u0120-": 481,
      "ere": 485,
      "..": 496,
      "\u0120you": 498,
      "ant": 517,
      "\u0120sh": 557,
      "ok": 562,
      "\u0120he": 566,
      "\u0120we": 582,
      "ve": 586,
      "'s": 594,
      "one": 603,
      "name": 606,
      "pon": 618,
      "\u0120J": 619,
      "_s": 643,
      "\u0120can": 646,
      "\u0120do": 653,
      "ll": 654,
      "ud": 661,
      "te": 665,
      "Re": 693,
      "\u0120\u010a": 715,
      "ft": 723,
      "ep": 747,
      "def": 750,
      "ec": 757,
      "ss": 778,
      "RE": 787,
      "ser": 799,
      "\u0120Y": 809,
      "use": 810,
      "ne": 811,
      "ef": 823,
      "fo": 824,
      "\u0120ne": 834,
      "user": 872,
      "we": 896,
      "\u0120no": 902,
      "ca": 924,
      "sh": 927,
      "'t": 944,
      "\u00c3\u00a9": 963,
      "to": 983,
      "\u0120te": 1013,
      "of": 1055,
      "\u0120her": 1059,
      "min": 1065,
      "_n": 1089,
      "AN": 1093,
      "...": 1112,
      "\u0120--": 1177,
      "\u0120He": 1260,
      "_st": 1261,
      "_name": 1269,
      "\u00e3\u0122": 1277,
      "\u0120\u00d0": 1278,
      "text": 1318,
      "\u0120she": 1340,
      "az": 1370,
      "\u00d0\u00be": 1456,
      "\u00d0\u00b0": 1478,
      "\u00d0\u00b5": 1504,
      "\u0120don": 1513,
      "He": 1519,
      "\u00ef\u00bc": 1540,
      "\u0109\u010a": 1572,
      "\u0120here": 1588,
      "ces": 1603,
      "\u00e3\u0122\u0124": 1773,
      "><": 1784,
      "\u0120next": 1790,
      "\u00d1\u0124": 1792,
      "\u00d0\u00b8": 1802,
      "fe": 1859,
      "her": 1923,
      "\u0120ter": 1982,
      "\u0120rep": 2064,
      "\u00d0\u00bd": 2108,
      "ado": 2123,
      "\u0120\u00c2": 2139,
      "no": 2152,
      "\u0120ca": 2162,
      "\u00d1\u0122": 2184,
      "\u00e3\u0123": 2194,
      "_e": 2204,
      "ina": 2210,
      "\u00d0\u00be\u00d0": 2226,
      "\u0109b": 2233,
      "xt": 2252,
      "bar": 2257,
      "oh": 2267,
      "'re": 2299,
      "rl": 2381,
      "start": 2468,
      "ta": 2565,
      "af": 2577,
      "oo": 2624,
      "me": 2660,
      "'m": 2776,
      "irl": 2811,
      "\u0120done": 2814,
      "do": 2982,
      "'ve": 3003,
      "\u00d0\u00bb": 3038,
      "ohn": 3103,
      "\u00bb\u00bf": 3219,
      "\u00ef\u00bb\u00bf": 3225,
      "da": 3235,
      "ued": 3260,
      "'ll": 3278,
      "\u0120\u00ec": 3315,
      "rt": 3342,
      "na": 3376,
      "\u00e3\u0124": 3402,
      "\u00e4\u00b8": 3490,
      "next": 3600,
      "\u0120bar": 3619,
      "\u00d0\u00b0\u00d0": 3648,
      "\u0120John": 3757,
      "\u00ef\u00bc\u012e": 3837,
      "LL": 4086,
      "\u00c2\u0142": 4102,
      "'d": 4172,
      "erm": 4195,
      "\u00d1\u0131": 4235,
      "\u0120na": 4317,
      "\u0109\u010d\u010a": 4474,
      "VE": 4491,
      "ba": 4645,
      "\u0120term": 4647,
      "stant": 4706,
      "\u00d0\u00ba": 4793,
      "\u00e6\u013e": 4811,
      "can": 4814,
      "_start": 4906,
      "term": 4991,
      "CA": 5049,
      "\u0120\u00eb": 5140,
      "?\u010a": 5267,
      "po": 5368,
      "\u00e3\u0122\u0123": 5373,
      "\u0120ok": 5394,
      "\u00d0\u00b2": 5474,
      "\u00e0\u00a4": 5502,
      "afe": 5645,
      "\u00d8\u00a7": 5703,
      "des": 5799,
      "\u00ec\u013f": 5902,
      "\u00d1\u0129": 6020,
      "hi": 6023,
      "_en": 6205,
      "_end": 6213,
      "\u0120repe": 6219,
      "si": 6321,
      "ito": 6357,
      "pa": 6595,
      "\u00c3\u00ba": 6654,
      "\u0120\u00d0\u00bd": 6709,
      "ona": 6721,
      "here": 6739,
      "pet": 6862,
      "\u00d0\u00b4": 6949,
      "\u0120\u0109": 7018,
      "(y": 7021,
      "\u00ed\u0137": 7311,
      "\u00e6\u012a": 7536,
      "foo": 7975,
      "\u00e5\u00a4": 8032,
      "uda": 8053,
      "mi": 8155,
      "\u00d0\u00b5\u00d1\u0124": 8178,
      "\u00e4\u00bd": 8519,
      "\u00d9\u0126": 8532,
      "endo": 8691,
      "rm": 8719,
      "\u0120\u00d8": 8803,
      "\u0120\u00d1": 8839,
      "bc": 8904,
      "istan": 8944,
      "\u00d0\u00b7": 8959,
      "ye": 9011,
      "ista": 9087,
      "\u0120CA": 9183,
      "\u00c2\u0142\u00c2\u0142": 9238,
      "\u00e7\u013c": 9260,
      "\u00f0\u0141": 9284,
      "you": 9330,
      "\u00d0\u00b8\u00d1\u0124": 9358,
      "\u00e7\u013c\u0126": 9370,
      "\u00d0\u00be\u00d0\u00b4": 9516,
      "yes": 9693,
      "rep": 9995,
      "?)": 10170,
      "\u00d9\u0127": 10176,
      "\u00e8\u00ae": 10203,
      "\u0120termin": 10204,
      "ti": 10251,
      "done": 10438,
      "\u0120\u00d0\u00b7": 10885,
      "\u0120Jo": 10946,
      "\u00d8\u00b1": 11071,
      "\u0120\u00f0\u0141": 11162,
      "istant": 11202,
      "\u00e5\u00ba": 11534,
      "\u00e6\u013a": 11620,
      "\u0120fo": 11756,
      "star": 11870,
      "OU": 11922,
      "nam": 12400,
      "WE": 12457,
      "\u00e0\u00a5": 12619,
      "\u0120ba": 12789,
      "\u0120\u00d8\u00a7": 12961,
      "John": 13079,
      "pad": 13242,
      "'S": 13272,
      "\u00d8\u00af": 13325,
      "abc": 13683,
      "\u00e9\u00a1": 13846,
      "oft": 14118,
      "\u00d1\u012b": 14144,
      "\u00d8\u00aa": 14293,
      "sis": 14406,
      "\u00d9\u012c": 14558,
      "\u00ec\u0126": 14559,
      "\u00e3\u0123\u0139": 14682,
      "\u00e4\u00b8\u0122": 14777,
      "\u00ec\u013c": 14922,
      "\u0120\u00e0\u00a4": 14925,
      "\u0120YOU": 14985,
      "don": 15007,
      "\u0120foo": 15229,
      "ede": 15326,
      "\u00e2\u0122\u012d": 15692,
      "\u00d0\u00b0\u00d0\u00ba": 15869,
      "yo": 16032,
      "\u00ed\u0137\u013a": 16186,
      "\u00e3\u0123\u0126": 16586,
      "\u00e3\u0123\u00be": 16714,
      "\u00d0\u0141": 16854,
      "\u00d0\u00b6": 16964,
      "\u0120\u00d8\u00a7\u00d9\u0126": 17166,
      "\u00e3\u0123\u013b": 17219,
      "\u00d0\u00be\u00d0\u00bd": 17316,
      "'T": 17323,
      "\u0120\u0109\u010a": 17476,
      "\u00ec\u013f\u0126": 17877,
      "\u013b\u0124": 18535,
      "\u0120\u00d0\u00bd\u00d0\u00b5": 18658,
      "\u0120ay": 18898,
      "\u0120nec": 19053,
      "\u00e9\u00a2": 19261,
      "\u0120CAN": 19508,
      "\u0120WE": 19677,
      "\u00e3\u0123\u0139\u00e3\u0123": 20472,
      "sta": 20491,
      "\u00d0\u00be\u00d0\u00b6": 21259,
      "\u00d8\u00a8": 21360,
      "\u00ec\u012d": 21530,
      "\u00ea\u00b3": 22009,
      "\u0120\u00d0\u00b5": 22132,
      "\u0120\u00d0\u0141": 22419,
      "\u00e3\u0122\u0122": 22441,
      "Jo": 22493,
      "termin": 22969,
      "repo": 23476,
      "\u00e0\u00a4\u00be": 23868,
      "stan": 24025,
      "hn": 24134,
      "\u00c3\u00ban": 24180,
      "\u0120neces": 24223,
      "\u00e3\u0124\u0135": 24791,
      "\u00d0\u00b8\u00d1\u0124\u00d0\u00b5": 25965,
      "\u00c2\u00bd": 26062,
      "\u0120Joh": 26176,
      "\u0120repet": 26330,
      "\u00e5\u00ba\u00a6": 26381,
      "tar": 26737,
      "\u010a\u0120\u010a": 26809,
      "\u00d0\u00b8\u00d0\u00b2": 26991,
      "\u00e5\u00a5": 27095,
      "\u00ec\u0138": 27398,
      "\u0120\u00f0\u0141\u013b\u0124": 27484,
      "'M": 27603,
      "\u00ea\u00b2": 27640,
      "\u0120\u00e0": 27982,
      "\u00eb\u00b3": 27999,
      ">x": 28257,
      "\u0120\u00ec\u012d": 28927,
      "\u00e3\u0123\u0128": 29197,
      "\u00c2\u00b2": 29456,
      "\u0120yo": 29496,
      "\u00e0\u00a5\u012f": 29607,
      "\u00d8\u0143": 29825,
      "\u00d1\u0122\u00d0\u00b8": 30103,
      "\u00c2\u00bf": 30182,
      "\u00ec\u0137": 30395,
      "\u00e0\u00a5\u012f\u00e0\u00a4": 30484,
      "\u0120\u00eb\u00b3": 30520,
      "\u00e6\u013a\u0130": 30858,
      "she": 31058,
      "\u00ec\u0138\u00b4": 31079,
      "\u00d8\u00a7\u00d9\u0126": 31382,
      "\u00e0\u00a4\u00be\u00e0\u00a4": 31411,
      "_star": 31681,
      "\u00e3\u0124\u0124": 31877,
      "\u00e3\u0123\u012c": 32234,
      "\u00e3\u0123\u00be\u00e3\u0123\u013b": 32441,
      "\u00e6\u0125": 32465,
      "assis": 32467,
      "\u00e6\u013e\u00ba": 32648,
      "esi": 33083,
      "\u00d8\u00ac": 33090,
      "tex": 33344,
      "\u00e0\u00a5\u0129": 34370,
      "\u00ea\u00b3\u0142": 34395,
      "\u00ec\u013a": 34992,
      "\u00ec\u013c\u0136": 35711,
      "\u00e5\u00a4\u00a9": 35727,
      "\u00e6\u012a\u0133": 35946,
      "\u00c3\u00af": 37572,
      "\u0120\u00ec\u013a": 38523,
      "\u00e0\u00a4\u00bf": 38851,
      "\u0120\u00d8\u00aa": 39434,
      "\u00d8\u00b2": 39697,
      "yu": 40001,
      "\u00ec\u0126\u00b8": 41429,
      "CAN": 41955,
      "\u00e0\u00a4\u00bf\u00e0\u00a4": 42311,
      "baz": 42573,
      "\u0120\u00d0\u00b7\u00d0\u00b0": 43846,
      ">a": 43875,
      "\u00d1\u0133": 44022,
      "\u0120\u00d1\u0131": 45310,
      "!\u010d\u010a": 45626,
      "ssi": 45656,
      "\u0120\u00eb\u00b3\u0122": 46319,
      "sit": 46865,
      "\u00d0\u00b2\u00d0\u00b5\u00d1\u0124": 46974,
      "\u00d0\u00ba\u00d0\u00be": 47099,
      "'Re": 49427,
      "\u00ec\u0126\u00b8\u00ec\u013c\u0136": 50302,
      "\u00d1\u0124\u00d0\u00b5": 50527,
      "eti": 50898,
      "assist": 50966,
      ">b": 51407,
      "\u00e2\u0123": 52133,
      "tan": 52591,
      "\u00e5\u00a5\u00bd": 52801,
      "\u00d0\u0141\u00d1\u0122": 53645,
      "\u00cc\u0123": 53839,
      "\u00e7\u00a5": 54128,
      "YOU": 56389,
      "\u00e4\u00bd\u0142": 56568,
      "YO": 56644,
      "\u0120ayud": 58137,
      "\u0120\u00d0\u00b7\u00d0\u00b0\u00d0\u00ba": 58213,
      "edes": 58526,
      "_na": 58631,
      "f\u00c3\u00a9": 58858,
      "\u00e0\u00a4\u00a8": 60096,
      "tant": 60412,
      "\u00e3\u0123\u00bf": 63021,
      "\u00d0\u00b8\u00d0\u00bb": 63192,
      "fte": 63319,
      "\u0120\u00d8\u00a3": 63415,
      "uede": 63667,
      "'l": 63866,
      "\u00ea\u00b2\u00bd": 65306,
      "\u00d8\u012e": 68785,
      "caf": 68796,
      "\u00d8\u00a3": 69682,
      "\u00e2\u0127": 70467,
      "\u00e3\u0123\u013d": 71242,
      "\u00e0\u00a5\u0123": 72653,
      "nex": 73226,
      "\u0120ayuda": 73659,
      "\u00eb\u0127": 74165,
      "ece": 74407,
      "mina": 75435,
      "Pu": 76362,
      "assistant": 77091,
      "\u00e3\u0123\u0139\u00e3\u0123\u00be\u00e3\u0123\u013b": 77334,
      "\u00e0\u00a4\u00b8": 78368,
      "\u00d0\u00bd\u00d0\u00b5": 78762,
      "\u00e0\u00a4\u00a4": 79238,
      "\u0120\u00d0\u0141\u00d1\u0122": 79484,
      "_sta": 79951,
      "\u010d\u010a\u010a": 80823,
      "nad": 80944,
      "assi": 81543,
      "\u00d8\u00ba": 81778,
      ">y": 82244,
      "\u0120<|": 82639,
      "\u00d0\u00b5\u00d1\u012b": 85510,
      "!<": 86932,
      "\u00e0\u00a4\u00ae": 87244,
      "\u0120\u00eb\u00b3\u0122\u00ea\u00b2\u00bd": 87737,
      "ndo": 89214,
      "\u0109bar": 90709,
      "'R": 90887,
      "\u00ed\u0137\u013a\u00ec\u0126\u00b8\u00ec\u013c\u0136": 91145,
      "<r": 91190,
      "\u0120\u00e0\u00a4\u00ae": 91217,
      "'L": 91426,
      "\u0127\u00a7": 91771,
      "\u0120nex": 91808,
      "\u00d9\u012c\u00d8\u00b1": 93543,
      "\u00e0\u00a4\u00b9": 93948,
      "'RE": 94153,
      "\u00e7\u00a5\u00a8": 94444,
      "\u0120na\u00c3\u00af": 94880,
      "\u0120\u00ec\u013a\u012a": 95617,
      "|i": 96136,
      "'r": 96570,
      "\u00e9\u00a2\u0126": 98841,
      "\u00e6\u0125\u00b3": 99172,
      "\u00e8\u00ae\u00a2": 99975,
      "\u00e4\u00b8\u0122\u00e5\u00ba\u00a6": 102738,
      "\u00e9\u00a1\u013a": 103227,
      "\u00e6\u012a\u0133\u00e6\u0125\u00b3": 104100,
      "\u00e6\u013a\u0130\u00e5\u00a4\u00a9": 104807,
      "\u00e4\u00bd\u0142\u00e5\u00a5\u00bd": 108386,
      "\u00e9\u00a2\u0126\u00e8\u00ae\u00a2": 109545,
      "\u00e6\u013e\u00ba\u00e7\u00a5\u00a8": 111428,
      "\u00ef\u00bb": 123810,
      "\u00d8\u00b1\u00d9\u012c": 123832,
      "\u00f0\u0141\u013c": 123846,
      "\u0120\u00d8\u00a7\u00d9\u0126\u00d8\u0143": 123961,
      "\u00e1\u0142": 123970,
      "\u00d9\u012c\u00d8\u00af": 123980,
      "\u00e3\u0123\u0139\u00e3\u0123\u00be": 124097,
      "\u00f0\u0141\u013b": 124100,
      "\u00d9\u0127\u00d8\u00b1": 124122,
      "\u00e3\u0123\u00be\u00e3\u0123\u013d": 124217,
      "\u00e3\u0123\u00be\u00e3\u0123\u013d\u00e3\u0124\u0135": 124266,
      "\u00d9\u012d": 124376,
      "\u00d8\u00a8\u00d8\u00a7": 124671,
      "\u00d8\u00ac\u00d8\u00b2": 124833,
      "\u00e1\u013c": 124999,
      "\u00d8\u00ba\u00d9\u012c": 125313,
      "\u00d8\u00b1\u00d9\u012c\u00d8\u00af": 125325,
      "\u00d1\u0129\u00d0\u00b8": 125515,
      "\u00ec\u0137\u00bd": 125535,
      "\u00ed\u0137\u013a\u00ea\u00b3\u0142": 126204,
      "\u00d0\u00b7\u00d0\u00b0": 126213,
      "\u00d0\u00b4\u00d0\u00b8": 126218,
      "\u00ec\u0137\u012a": 126246,
      "\u00d0\u00b2\u00d0\u00b5": 126353,
      "\u00d8\u0143\u00d8\u00a8": 126381,
      "\u00d0\u00ba\u00d0\u00be\u00d0\u00bd": 126471,
      "\u00eb\u00b3\u0122": 126667,
      "\u00d8\u00b1\u00d8\u0143": 126860,
      "\u00ec\u013a\u012a": 127027,
      "\u00d8\u00a7\u00d9\u012d": 128257,
      "\u0120\u00d0\u0141\u00d1\u0122\u00d0\u00b8": 128462,
      "\u00d0\u00b6\u00d0\u00b4": 128665,
      "\u00d0\u00b4\u00d0\u00be": 128749,
      "\u00e3\u0124\u0124\u00e3\u0123\u0128": 128778,
      "\u0120\u00d0\u00b7\u00d0\u00b0\u00d0\u00ba\u00d0\u00be\u00d0\u00bd": 129707,
      "\u00d9\u0126\u00d8\u0143": 129710,
      "\u00d0\u0141\u00d0\u00be": 130801,
      "\u00ec\u0138\u00b4\u00ec\u013c\u0136": 131355,
      "\u00d8\u00aa\u00d8\u00ba\u00d9\u012c": 131597,
      "\u00d8\u00aa\u00d8\u00ba\u00d9\u012c\u00d9\u012c\u00d8\u00b1": 131598,
      "\u00e3\u0123\u012c\u00e9\u00a1\u013a": 132001,
      "\u00e3\u0123\u012c\u00e9\u00a1\u013a\u00e3\u0123\u0126": 132002,
      "\u00ec\u012d\u00b6": 132556,
      "\u00d8\u0143\u00d8\u00ac": 134209,
      "\u0120\u00d0\u00b5\u00d1\u012b": 134412,
      "\u0120\u00d0\u00b5\u00d1\u012b\u00d1\u0133": 134413,
      "sist": 139224,
      "\u00d0\u0141\u00d0\u00be\u00d0\u00b4": 143822,
      "\u00eb\u0127\u0137": 144370,
      "\u00f0\u0141\u013b\u0124": 145080,
      "\u00e0\u00a4\u00a6": 145256,
      "\u00e0\u00a4\u00af": 145420,
      "\u00e0\u00a4\u00b5": 145535,
      "\u00f0\u0141\u013c\u0122": 145836,
      "\u00e0\u00a5\u00a4": 146031,
      "\u00e0\u00a4\u0131": 146049,
      "\u00e0\u00a4\u013c": 146113,
      "\u00e0\u00a4\u00a7": 146821,
      "\u00e0\u00a4\u013f": 148971,
      "<|endoftext|>": 151643,
      "<|im_start|>": 151644,
      "<|im_end|>": 151645,
      "<|object_ref_start|>": 151646,
      "<|object_ref_end|>": 151647,
      "<|box_start|>": 151648,
      "<|box_end|>": 151649,
      "<|quad_start|>": 151650,
      "<|quad_end|>": 151651,
      "<|vision_start|>": 151652,
      "<|vision_end|>": 151653,
      "<|vision_pad|>": 151654,
      "<|image_pad|>": 151655,
      "<|video_pad|>": 151656
    },
    "merges": [
      [
        "\u0120",
        "\u0120"
      ],
      [
        "\u0120\u0120",
        "\u0120\u0120"
      ],
      [
        "i",
        "n"
      ],
      [
        "\u0120",
        "t"
      ],
      [
        "e",
        "r"
      ],
      [
        "\u0120\u0120",
        "\u0120"
      ],
      [
        "o",
        "n"
      ],
      [
        "\u0120",
        "a"
      ],
      [
        "r",
        "e"
      ],
      [
        "s",
        "t"
      ],
      [
        "e",
        "n"
      ],
      [
        "\u010a",
        "\u010a"
      ],
      [
        "\u0120",
        "c"
      ],
      [
        "\u0120",
        "s"
      ],
      [
        "i",
        "t"
      ],
      [
        "a",
        "n"
      ],
      [
        "a",
        "r"
      ],
      [
        "\u0120",
        "f"
      ],
      [
        "o",
        "u"
      ],
      [
        "i",
        "s"
      ],
      [
        "e",
        "s"
      ],
      [
        "\u0120",
        "w"
      ],
      [
        "e",
        "d"
      ],
      [
        "\u0120",
        "b"
      ],
      [
        "\u0120",
        "d"
      ],
      [
        "e",
        "t"
      ],
      [
        "\u0120",
        "o"
      ],
      [
        "\u0109",
        "\u0109"
      ],
      [
        "a",
        "s"
      ],
      [
        "n",
        "d"
      ],
      [
        "\u0120",
        "h"
      ],
      [
        "\u0120",
        "n"
      ],
      [
        "a",
        "m"
      ],
      [
        "\u0120",
        "re"
      ],
      [
        "-",
        "-"
      ],
      [
        "i",
        "m"
      ],
      [
        "\u010d",
        "\u010a"
      ],
      [
        "\u0120",
        "("
      ],
      [
        "s",
        "e"
      ],
      [
        "e",
        "x"
      ],
      [
        "a",
        "d"
      ],
      [
        "c",
        "e"
      ],
      [
        "a",
        "y"
      ],
      [
        "u",
        "s"
      ],
      [
        "\u0120",
        "C"
      ],
      [
        "\u0120",
        "I"
      ],
      [
        "u",
        "e"
      ],
      [
        "\u0120",
        "A"
      ],
      [
        "\u0120",
        "<"
      ],
      [
        "a",
        "b"
      ],
      [
        "am",
        "e"
      ],
      [
        "p",
        "e"
      ],
      [
        "\u00e2",
        "\u0122"
      ],
      [
        "\u0120",
        "y"
      ],
      [
        "i",
        "st"
      ],
      [
        "h",
        "e"
      ],
      [
        "l",
        "o"
      ],
      [
        "as",
        "s"
      ],
      [
        ">",
        "\u010a"
      ],
      [
        "i",
        "r"
      ],
      [
        "n",
        "t"
      ],
      [
        "en",
        "d"
      ],
      [
        "\u0120\u0120\u0120\u0120",
        "\u0120"
      ],
      [
        "ex",
        "t"
      ],
      [
        "\u0120",
        "r"
      ],
      [
        "d",
        "e"
      ],
      [
        "t",
        "er"
      ],
      [
        "\u0120",
        "W"
      ],
      [
        "ar",
        "t"
      ],
      [
        "\u0120",
        "H"
      ],
      [
        "\u0120",
        "-"
      ],
      [
        "er",
        "e"
      ],
      [
        ".",
        "."
      ],
      [
        "\u0120y",
        "ou"
      ],
      [
        "an",
        "t"
      ],
      [
        "\u0120s",
        "h"
      ],
      [
        "o",
        "k"
      ],
      [
        "\u0120h",
        "e"
      ],
      [
        "\u0120w",
        "e"
      ],
      [
        "v",
        "e"
      ],
      [
        "'",
        "s"
      ],
      [
        "on",
        "e"
      ],
      [
        "n",
        "ame"
      ],
      [
        "p",
        "on"
      ],
      [
        "\u0120",
        "J"
      ],
      [
        "_",
        "s"
      ],
      [
        "\u0120c",
        "an"
      ],
      [
        "\u0120d",
        "o"
      ],
      [
        "l",
        "l"
      ],
      [
        "u",
        "d"
      ],
      [
        "t",
        "e"
      ],
      [
        "R",
        "e"
      ],
      [
        "\u0120",
        "\u010a"
      ],
      [
        "f",
        "t"
      ],
      [
        "e",
        "p"
      ],
      [
        "de",
        "f"
      ],
      [
        "e",
        "c"
      ],
      [
        "s",
        "s"
      ],
      [
        "R",
        "E"
      ],
      [
        "s",
        "er"
      ],
      [
        "\u0120",
        "Y"
      ],
      [
        "u",
        "se"
      ],
      [
        "n",
        "e"
      ],
      [
        "e",
        "f"
      ],
      [
        "f",
        "o"
      ],
      [
        "\u0120n",
        "e"
      ],
      [
        "us",
        "er"
      ],
      [
        "w",
        "e"
      ],
      [
        "\u0120n",
        "o"
      ],
      [
        "c",
        "a"
      ],
      [
        "s",
        "h"
      ],
      [
        "'",
        "t"
      ],
      [
        "\u00c3",
        "\u00a9"
      ],
      [
        "t",
        "o"
      ],
      [
        "\u0120t",
        "e"
      ],
      [
        "o",
        "f"
      ],
      [
        "\u0120h",
        "er"
      ],
      [
        "m",
        "in"
      ],
      [
        "_",
        "n"
      ],
      [
        "A",
        "N"
      ],
      [
        "..",
        "."
      ],
      [
        "\u0120",
        "--"
      ],
      [
        "\u0120H",
        "e"
      ],
      [
        "_",
        "st"
      ],
      [
        "_",
        "name"
      ],
      [
        "\u00e3",
        "\u0122"
      ],
      [
        "\u0120",
        "\u00d0"
      ],
      [
        "t",
        "ext"
      ],
      [
        "\u0120s",
        "he"
      ],
      [
        "a",
        "z"
      ],
      [
        "\u00d0",
        "\u00be"
      ],
      [
        "\u00d0",
        "\u00b0"
      ],
      [
        "\u00d0",
        "\u00b5"
      ],
      [
        "\u0120d",
        "on"
      ],
      [
        "H",
        "e"
      ],
      [
        "\u00ef",
        "\u00bc"
      ],
      [
        "\u0109",
        "\u010a"
      ],
      [
        "\u0120h",
        "ere"
      ],
      [
        "c",
        "es"
      ],
      [
        "\u00e3\u0122",
        "\u0124"
      ],
      [
        ">",
        "<"
      ],
      [
        "\u0120n",
        "ext"
      ],
      [
        "\u00d1",
        "\u0124"
      ],
      [
        "\u00d0",
        "\u00b8"
      ],
      [
        "f",
        "e"
      ],
      [
        "h",
        "er"
      ],
      [
        "\u0120t",
        "er"
      ],
      [
        "\u0120re",
        "p"
      ],
      [
        "\u00d0",
        "\u00bd"
      ],
      [
        "ad",
        "o"
      ],
      [
        "\u0120",
        "\u00c2"
      ],
      [
        "n",
        "o"
      ],
      [
        "\u0120c",
        "a"
      ],
      [
        "\u00d1",
        "\u0122"
      ],
      [
        "\u00e3",
        "\u0123"
      ],
      [
        "_",
        "e"
      ],
      [
        "in",
        "a"
      ],
      [
        "\u00d0\u00be",
        "\u00d0"
      ],
      [
        "\u0109",
        "b"
      ],
      [
        "x",
        "t"
      ],
      [
        "b",
        "ar"
      ],
      [
        "o",
        "h"
      ],
      [
        "'",
        "re"
      ],
      [
        "r",
        "l"
      ],
      [
        "st",
        "art"
      ],
      [
        "t",
        "a"
      ],
      [
        "a",
        "f"
      ],
      [
        "o",
        "o"
      ],
      [
        "m",
        "e"
      ],
      [
        "'",
        "m"
      ],
      [
        "ir",
        "l"
      ],
      [
        "\u0120d",
        "one"
      ],
      [
        "d",
        "o"
      ],
      [
        "'",
        "ve"
      ],
      [
        "\u00d0",
        "\u00bb"
      ],
      [
        "oh",
        "n"
      ],
      [
        "\u00bb",
        "\u00bf"
      ],
      [
        "\u00ef",
        "\u00bb\u00bf"
      ],
      [
        "d",
        "a"
      ],
      [
        "u",
        "ed"
      ],
      [
        "'",
        "ll"
      ],
      [
        "\u0120",
        "\u00ec"
      ],
      [
        "r",
        "t"
      ],
      [
        "n",
        "a"
      ],
      [
        "\u00e3",
        "\u0124"
      ],
      [
        "\u00e4",
        "\u00b8"
      ],
      [
        "n",
        "ext"
      ],
      [
        "\u0120b",
        "ar"
      ],
      [
        "\u00d0\u00b0",
        "\u00d0"
      ],
      [
        "\u0120J",
        "ohn"
      ],
      [
        "\u00ef\u00bc",
        "\u012e"
      ],
      [
        "L",
        "L"
      ],
      [
        "\u00c2",
        "\u0142"
      ],
      [
        "'",
        "d"
      ],
      [
        "er",
        "m"
      ],
      [
        "\u00d1",
        "\u0131"
      ],
      [
        "\u0120n",
        "a"
      ],
      [
        "\u0109",
        "\u010d\u010a"
      ],
      [
        "V",
        "E"
      ],
      [
        "b",
        "a"
      ],
      [
        "\u0120ter",
        "m"
      ],
      [
        "st",
        "ant"
      ],
      [
        "\u00d0",
        "\u00ba"
      ],
      [
        "\u00e6",
        "\u013e"
      ],
      [
        "c",
        "an"
      ],
      [
        "_st",
        "art"
      ],
      [
        "ter",
        "m"
      ],
      [
        "C",
        "A"
      ],
      [
        "\u0120",
        "\u00eb"
      ],
      [
        "?",
        "\u010a"
      ],
      [
        "p",
        "o"
      ],
      [
        "\u00e3\u0122",
        "\u0123"
      ],
      [
        "\u0120o",
        "k"
      ],
      [
        "\u00d0",
        "\u00b2"
      ],
      [
        "\u00e0",
        "\u00a4"
      ],
      [
        "a",
        "fe"
      ],
      [
        "\u00d8",
        "\u00a7"
      ],
      [
        "d",
        "es"
      ],
      [
        "\u00ec",
        "\u013f"
      ],
      [
        "\u00d1",
        "\u0129"
      ],
      [
        "h",
        "i"
      ],
      [
        "_",
        "en"
      ],
      [
        "_",
        "end"
      ],
      [
        "\u0120re",
        "pe"
      ],
      [
        "s",
        "i"
      ],
      [
        "it",
        "o"
      ],
      [
        "p",
        "a"
      ],
      [
        "\u00c3",
        "\u00ba"
      ],
      [
        "\u0120\u00d0",
        "\u00bd"
      ],
      [
        "on",
        "a"
      ],
      [
        "h",
        "ere"
      ],
      [
        "p",
        "et"
      ],
      [
        "\u00d0",
        "\u00b4"
      ],
      [
        "\u0120",
        "\u0109"
      ],
      [
        "(",
        "y"
      ],
      [
        "\u00ed",
        "\u0137"
      ],
      [
        "\u00e6",
        "\u012a"
      ],
      [
        "fo",
        "o"
      ],
      [
        "\u00e5",
        "\u00a4"
      ],
      [
        "ud",
        "a"
      ],
      [
        "m",
        "i"
      ],
      [
        "\u00d0\u00b5",
        "\u00d1\u0124"
      ],
      [
        "\u00e4",
        "\u00bd"
      ],
      [
        "\u00d9",
        "\u0126"
      ],
      [
        "end",
        "o"
      ],
      [
        "r",
        "m"
      ],
      [
        "\u0120",
        "\u00d8"
      ],
      [
        "\u0120",
        "\u00d1"
      ],
      [
        "b",
        "c"
      ],
      [
        "ist",
        "an"
      ],
      [
        "\u00d0",
        "\u00b7"
      ],
      [
        "y",
        "e"
      ],
      [
        "ist",
        "a"
      ],
      [
        "\u0120C",
        "A"
      ],
      [
        "\u00c2\u0142",
        "\u00c2\u0142"
      ],
      [
        "\u00e7",
        "\u013c"
      ],
      [
        "\u00f0",
        "\u0141"
      ],
      [
        "y",
        "ou"
      ],
      [
        "\u00d0\u00b8",
        "\u00d1\u0124"
      ],
      [
        "\u00e7\u013c",
        "\u0126"
      ],
      [
        "\u00d0\u00be\u00d0",
        "\u00b4"
      ],
      [
        "y",
        "es"
      ],
      [
        "re",
        "p"
      ],
      [
        "?",
        ")"
      ],
      [
        "\u00d9",
        "\u0127"
      ],
      [
        "\u00e8",
        "\u00ae"
      ],
      [
        "\u0120ter",
        "min"
      ],
      [
        "t",
        "i"
      ],
      [
        "d",
        "one"
      ],
      [
        "\u0120\u00d0",
        "\u00b7"
      ],
      [
        "\u0120J",
        "o"
      ],
      [
        "\u00d8",
        "\u00b1"
      ],
      [
        "\u0120",
        "\u00f0\u0141"
      ],
      [
        "ist",
        "ant"
      ],
      [
        "\u00e5",
        "\u00ba"
      ],
      [
        "\u00e6",
        "\u013a"
      ],
      [
        "\u0120f",
        "o"
      ],
      [
        "st",
        "ar"
      ],
      [
        "O",
        "U"
      ],
      [
        "n",
        "am"
      ],
      [
        "W",
        "E"
      ],
      [
        "\u00e0",
        "\u00a5"
      ],
      [
        "\u0120b",
        "a"
      ],
      [
        "\u0120",
        "\u00d8\u00a7"
      ],
      [
        "J",
        "ohn"
      ],
      [
        "p",
        "ad"
      ],
      [
        "'",
        "S"
      ],
      [
        "\u00d8",
        "\u00af"
      ],
      [
        "ab",
        "c"
      ],
      [
        "\u00e9",
        "\u00a1"
      ],
      [
        "o",
        "ft"
      ],
      [
        "\u00d1",
        "\u012b"
      ],
      [
        "\u00d8",
        "\u00aa"
      ],
      [
        "s",
        "is"
      ],
      [
        "\u00d9",
        "\u012c"
      ],
      [
        "\u00ec",
        "\u0126"
      ],
      [
        "\u00e3\u0123",
        "\u0139"
      ],
      [
        "\u00e4\u00b8",
        "\u0122"
      ],
      [
        "\u00ec",
        "\u013c"
      ],
      [
        "\u0120",
        "\u00e0\u00a4"
      ],
      [
        "\u0120Y",
        "OU"
      ],
      [
        "d",
        "on"
      ],
      [
        "\u0120f",
        "oo"
      ],
      [
        "ed",
        "e"
      ],
      [
        "\u00e2\u0122",
        "\u012d"
      ],
      [
        "\u00d0\u00b0\u00d0",
        "\u00ba"
      ],
      [
        "y",
        "o"
      ],
      [
        "\u00ed\u0137",
        "\u013a"
      ],
      [
        "\u00e3\u0123",
        "\u0126"
      ],
      [
        "\u00e3\u0123",
        "\u00be"
      ],
      [
        "\u00d0",
        "\u0141"
      ],
      [
        "\u00d0",
        "\u00b6"
      ],
      [
        "\u0120\u00d8\u00a7",
        "\u00d9\u0126"
      ],
      [
        "\u00e3\u0123",
        "\u013b"
      ],
      [
        "\u00d0\u00be",
        "\u00d0\u00bd"
      ],
      [
        "'",
        "T"
      ],
      [
        "\u0120",
        "\u0109\u010a"
      ],
      [
        "\u00ec\u013f",
        "\u0126"
      ],
      [
        "\u013b",
        "\u0124"
      ],
      [
        "\u0120\u00d0\u00bd",
        "\u00d0\u00b5"
      ],
      [
        "\u0120a",
        "y"
      ],
      [
        "\u0120n",
        "ec"
      ],
      [
        "\u00e9",
        "\u00a2"
      ],
      [
        "\u0120C",
        "AN"
      ],
      [
        "\u0120W",
        "E"
      ],
      [
        "\u00e3\u0123\u0139",
        "\u00e3\u0123"
      ],
      [
        "st",
        "a"
      ],
      [
        "\u00d0\u00be\u00d0",
        "\u00b6"
      ],
      [
        "\u00d8",
        "\u00a8"
      ],
      [
        "\u00ec",
        "\u012d"
      ],
      [
        "\u00ea",
        "\u00b3"
      ],
      [
        "\u0120\u00d0",
        "\u00b5"
      ],
      [
        "\u0120\u00d0",
        "\u0141"
      ],
      [
        "\u00e3\u0122",
        "\u0122"
      ],
      [
        "J",
        "o"
      ],
      [
        "ter",
        "min"
      ],
      [
        "re",
        "po"
      ],
      [
        "\u00e0\u00a4",
        "\u00be"
      ],
      [
        "st",
        "an"
      ],
      [
        "h",
        "n"
      ],
      [
        "\u00c3\u00ba",
        "n"
      ],
      [
        "\u0120nec",
        "es"
      ],
      [
        "\u00e3\u0124",
        "\u0135"
      ],
      [
        "\u00d0\u00b8\u00d1\u0124",
        "\u00d0\u00b5"
      ],
      [
        "\u00c2",
        "\u00bd"
      ],
      [
        "\u0120J",
        "oh"
      ],
      [
        "\u0120rep",
        "et"
      ],
      [
        "\u00e5\u00ba",
        "\u00a6"
      ],
      [
        "t",
        "ar"
      ],
      [
        "\u010a",
        "\u0120\u010a"
      ],
      [
        "\u00d0\u00b8",
        "\u00d0\u00b2"
      ],
      [
        "\u00e5",
        "\u00a5"
      ],
      [
        "\u00ec",
        "\u0138"
      ],
      [
        "\u0120\u00f0\u0141",
        "\u013b\u0124"
      ],
      [
        "'",
        "M"
      ],
      [
        "\u00ea",
        "\u00b2"
      ],
      [
        "\u0120",
        "\u00e0"
      ],
      [
        "\u00eb",
        "\u00b3"
      ],
      [
        ">",
        "x"
      ],
      [
        "\u0120\u00ec",
        "\u012d"
      ],
      [
        "\u00e3\u0123",
        "\u0128"
      ],
      [
        "\u00c2",
        "\u00b2"
      ],
      [
        "\u0120y",
        "o"
      ],
      [
        "\u00e0\u00a5",
        "\u012f"
      ],
      [
        "\u00d8",
        "\u0143"
      ],
      [
        "\u00d1\u0122",
        "\u00d0\u00b8"
      ],
      [
        "\u00c2",
        "\u00bf"
      ],
      [
        "\u00ec",
        "\u0137"
      ],
      [
        "\u00e0\u00a5\u012f",
        "\u00e0\u00a4"
      ],
      [
        "\u0120\u00eb",
        "\u00b3"
      ],
      [
        "\u00e6\u013a",
        "\u0130"
      ],
      [
        "s",
        "he"
      ],
      [
        "\u00ec\u0138",
        "\u00b4"
      ],
      [
        "\u00d8\u00a7",
        "\u00d9\u0126"
      ],
      [
        "\u00e0\u00a4\u00be",
        "\u00e0\u00a4"
      ],
      [
        "_st",
        "ar"
      ],
      [
        "\u00e3\u0124",
        "\u0124"
      ],
      [
        "\u00e3\u0123",
        "\u012c"
      ],
      [
        "\u00e3\u0123\u00be",
        "\u00e3\u0123\u013b"
      ],
      [
        "\u00e6",
        "\u0125"
      ],
      [
        "ass",
        "is"
      ],
      [
        "\u00e6\u013e",
        "\u00ba"
      ],
      [
        "es",
        "i"
      ],
      [
        "\u00d8",
        "\u00ac"
      ],
      [
        "t",
        "ex"
      ],
      [
        "\u00e0\u00a5",
        "\u0129"
      ],
      [
        "\u00ea\u00b3",
        "\u0142"
      ],
      [
        "\u00ec",
        "\u013a"
      ],
      [
        "\u00ec\u013c",
        "\u0136"
      ],
      [
        "\u00e5\u00a4",
        "\u00a9"
      ],
      [
        "\u00e6\u012a",
        "\u0133"
      ],
      [
        "\u00c3",
        "\u00af"
      ],
      [
        "\u0120\u00ec",
        "\u013a"
      ],
      [
        "\u00e0\u00a4",
        "\u00bf"
      ],
      [
        "\u0120\u00d8",
        "\u00aa"
      ],
      [
        "\u00d8",
        "\u00b2"
      ],
      [
        "y",
        "u"
      ],
      [
        "\u00ec\u0126",
        "\u00b8"
      ],
      [
        "C",
        "AN"
      ],
      [
        "\u00e0\u00a4\u00bf",
        "\u00e0\u00a4"
      ],
      [
        "b",
        "az"
      ],
      [
        "\u0120\u00d0\u00b7",
        "\u00d0\u00b0"
      ],
      [
        ">",
        "a"
      ],
      [
        "\u00d1",
        "\u0133"
      ],
      [
        "\u0120",
        "\u00d1\u0131"
      ],
      [
        "!",
        "\u010d\u010a"
      ],
      [
        "ss",
        "i"
      ],
      [
        "\u0120\u00eb\u00b3",
        "\u0122"
      ],
      [
        "s",
        "it"
      ],
      [
        "\u00d0\u00b2",
        "\u00d0\u00b5\u00d1\u0124"
      ],
      [
        "\u00d0\u00ba",
        "\u00d0\u00be"
      ],
      [
        "'",
        "Re"
      ],
      [
        "\u00ec\u0126\u00b8",
        "\u00ec\u013c\u0136"
      ],
      [
        "\u00d1\u0124",
        "\u00d0\u00b5"
      ],
      [
        "et",
        "i"
      ],
      [
        "ass",
        "ist"
      ],
      [
        ">",
        "b"
      ],
      [
        "\u00e2",
        "\u0123"
      ],
      [
        "t",
        "an"
      ],
      [
        "\u00e5\u00a5",
        "\u00bd"
      ],
      [
        "\u00d0\u0141",
        "\u00d1\u0122"
      ],
      [
        "\u00cc",
        "\u0123"
      ],
      [
        "\u00e7",
        "\u00a5"
      ],
      [
        "Y",
        "OU"
      ],
      [
        "\u00e4\u00bd",
        "\u0142"
      ],
      [
        "Y",
        "O"
      ],
      [
        "\u0120ay",
        "ud"
      ],
      [
        "\u0120\u00d0\u00b7",
        "\u00d0\u00b0\u00d0\u00ba"
      ],
      [
        "ed",
        "es"
      ],
      [
        "_n",
        "a"
      ],
      [
        "f",
        "\u00c3\u00a9"
      ],
      [
        "\u00e0\u00a4",
        "\u00a8"
      ],
      [
        "t",
        "ant"
      ],
      [
        "\u00e3\u0123",
        "\u00bf"
      ],
      [
        "\u00d0\u00b8",
        "\u00d0\u00bb"
      ],
      [
        "f",
        "te"
      ],
      [
        "\u0120\u00d8",
        "\u00a3"
      ],
      [
        "ued",
        "e"
      ],
      [
        "'",
        "l"
      ],
      [
        "\u00ea\u00b2",
        "\u00bd"
      ],
      [
        "\u00d8",
        "\u012e"
      ],
      [
        "ca",
        "f"
      ],
      [
        "\u00d8",
        "\u00a3"
      ],
      [
        "\u00e2",
        "\u0127"
      ],
      [
        "\u00e3\u0123",
        "\u013d"
      ],
      [
        "\u00e0\u00a5",
        "\u0123"
      ],
      [
        "n",
        "ex"
      ],
      [
        "\u0120ay",
        "uda"
      ],
      [
        "\u00eb",
        "\u0127"
      ],
      [
        "e",
        "ce"
      ],
      [
        "min",
        "a"
      ],
      [
        "P",
        "u"
      ],
      [
        "ass",
        "istant"
      ],
      [
        "\u00e3\u0123\u0139",
        "\u00e3\u0123\u00be\u00e3\u0123\u013b"
      ],
      [
        "\u00e0\u00a4",
        "\u00b8"
      ],
      [
        "\u00d0\u00bd",
        "\u00d0\u00b5"
      ],
      [
        "\u00e0\u00a4",
        "\u00a4"
      ],
      [
        "\u0120\u00d0\u0141",
        "\u00d1\u0122"
      ],
      [
        "_st",
        "a"
      ],
      [
        "\u010d",
        "\u010a\u010a"
      ],
      [
        "n",
        "ad"
      ],
      [
        "ass",
        "i"
      ],
      [
        "\u00d8",
        "\u00ba"
      ],
      [
        ">",
        "y"
      ],
      [
        "\u0120<",
        "|"
      ],
      [
        "\u00d0\u00b5",
        "\u00d1\u012b"
      ],
      [
        "!",
        "<"
      ],
      [
        "\u00e0\u00a4",
        "\u00ae"
      ],
      [
        "\u0120\u00eb\u00b3\u0122",
        "\u00ea\u00b2\u00bd"
      ],
      [
        "nd",
        "o"
      ],
      [
        "\u0109b",
        "ar"
      ],
      [
        "'",
        "R"
      ],
      [
        "\u00ed\u0137\u013a",
        "\u00ec\u0126\u00b8\u00ec\u013c\u0136"
      ],
      [
        "<",
        "r"
      ],
      [
        "\u0120\u00e0\u00a4",
        "\u00ae"
      ],
      [
        "'",
        "L"
      ],
      [
        "\u0127",
        "\u00a7"
      ],
      [
        "\u0120n",
        "ex"
      ],
      [
        "\u00d9\u012c",
        "\u00d8\u00b1"
      ],
      [
        "\u00e0\u00a4",
        "\u00b9"
      ],
      [
        "'",
        "RE"
      ],
      [
        "\u00e7\u00a5",
        "\u00a8"
      ],
      [
        "\u0120na",
        "\u00c3\u00af"
      ],
      [
        "\u0120\u00ec\u013a",
        "\u012a"
      ],
      [
        "|",
        "i"
      ],
      [
        "'",
        "r"
      ],
      [
        "\u00e9\u00a2",
        "\u0126"
      ],
      [
        "\u00e6\u0125",
        "\u00b3"
      ],
      [
        "\u00e8\u00ae",
        "\u00a2"
      ],
      [
        "\u00e4\u00b8\u0122",
        "\u00e5\u00ba\u00a6"
      ],
      [
        "\u00e9\u00a1",
        "\u013a"
      ],
      [
        "\u00e6\u012a\u0133",
        "\u00e6\u0125\u00b3"
      ],
      [
        "\u00e6\u013a\u0130",
        "\u00e5\u00a4\u00a9"
      ],
      [
        "\u00e4\u00bd\u0142",
        "\u00e5\u00a5\u00bd"
      ],
      [
        "\u00e9\u00a2\u0126",
        "\u00e8\u00ae\u00a2"
      ],
      [
        "\u00e6\u013e\u00ba",
        "\u00e7\u00a5\u00a8"
      ],
      [
        "\u00ef",
        "\u00bb"
      ],
      [
        "\u00d8\u00b1",
        "\u00d9\u012c"
      ],
      [
        "\u00f0\u0141",
        "\u013c"
      ],
      [
        "\u0120\u00d8\u00a7\u00d9\u0126",
        "\u00d8\u0143"
      ],
      [
        "\u00e1",
        "\u0142"
      ],
      [
        "\u00d9\u012c",
        "\u00d8\u00af"
      ],
      [
        "\u00e3\u0123\u0139",
        "\u00e3\u0123\u00be"
      ],
      [
        "\u00f0\u0141",
        "\u013b"
      ],
      [
        "\u00d9\u0127",
        "\u00d8\u00b1"
      ],
      [
        "\u00e3\u0123\u00be",
        "\u00e3\u0123\u013d"
      ],
      [
        "\u00e3\u0123\u00be\u00e3\u0123\u013d",
        "\u00e3\u0124\u0135"
      ],
      [
        "\u00d9",
        "\u012d"
      ],
      [
        "\u00d8\u00a8",
        "\u00d8\u00a7"
      ],
      [
        "\u00d8\u00ac",
        "\u00d8\u00b2"
      ],
      [
        "\u00e1",
        "\u013c"
      ],
      [
        "\u00d8\u00ba",
        "\u00d9\u012c"
      ],
      [
        "\u00d8\u00b1\u00d9\u012c",
        "\u00d8\u00af"
      ],
      [
        "\u00d1\u0129",
        "\u00d0\u00b8"
      ],
      [
        "\u00ec\u0137",
        "\u00bd"
      ],
      [
        "\u00ed\u0137\u013a",
        "\u00ea\u00b3\u0142"
      ],
      [
        "\u00d0\u00b7",
        "\u00d0\u00b0"
      ],
      [
        "\u00d0\u00b4",
        "\u00d0\u00b8"
      ],
      [
        "\u00ec\u0137",
        "\u012a"
      ],
      [
        "\u00d0\u00b2",
        "\u00d0\u00b5"
      ],
      [
        "\u00d8\u0143",
        "\u00d8\u00a8"
      ],
      [
        "\u00d0\u00ba",
        "\u00d0\u00be\u00d0\u00bd"
      ],
      [
        "\u00eb\u00b3",
        "\u0122"
      ],
      [
        "\u00d8\u00b1",
        "\u00d8\u0143"
      ],
      [
        "\u00ec\u013a",
        "\u012a"
      ],
      [
        "\u00d8\u00a7",
        "\u00d9\u012d"
      ],
      [
        "\u0120\u00d0\u0141",
        "\u00d1\u0122\u00d0\u00b8"
      ],
      [
        "\u00d0\u00b6",
        "\u00d0\u00b4"
      ],
      [
        "\u00d0\u00b4",
        "\u00d0\u00be"
      ],
      [
        "\u00e3\u0124\u0124",
        "\u00e3\u0123\u0128"
      ],
      [
        "\u0120\u00d0\u00b7\u00d0\u00b0\u00d0\u00ba",
        "\u00d0\u00be\u00d0\u00bd"
      ],
      [
        "\u00d9\u0126",
        "\u00d8\u0143"
      ],
      [
        "\u00d0\u0141",
        "\u00d0\u00be"
      ],
      [
        "\u00ec\u0138\u00b4",
        "\u00ec\u013c\u0136"
      ],
      [
        "\u00d8\u00aa",
        "\u00d8\u00ba\u00d9\u012c"
      ],
      [
        "\u00d8\u00aa\u00d8\u00ba\u00d9\u012c",
        "\u00d9\u012c\u00d8\u00b1"
      ],
      [
        "\u00e3\u0123\u012c",
        "\u00e9\u00a1\u013a"
      ],
      [
        "\u00e3\u0123\u012c\u00e9\u00a1\u013a",
        "\u00e3\u0123\u0126"
      ],
      [
        "\u00ec\u012d",
        "\u00b6"
      ],
      [
        "\u00d8\u0143",
        "\u00d8\u00ac"
      ],
      [
        "\u0120\u00d0\u00b5",
        "\u00d1\u012b"
      ],
      [
        "\u0120\u00d0\u00b5\u00d1\u012b",
        "\u00d1\u0133"
      ],
      [
        "s",
        "ist"
      ],
      [
        "\u00d0\u0141",
        "\u00d0\u00be\u00d0\u00b4"
      ],
      [
        "\u00eb\u0127",
        "\u0137"
      ],
      [
        "\u00f0\u0141",
        "\u013b\u0124"
      ],
      [
        "\u00e0\u00a4",
        "\u00a6"
      ],
      [
        "\u00e0\u00a4",
        "\u00af"
      ],
      [
        "\u00e0\u00a4",
        "\u00b5"
      ],
      [
        "\u00f0\u0141\u013c",
        "\u0122"
      ],
      [
        "\u00e0\u00a5",
        "\u00a4"
      ],
      [
        "\u00e0\u00a4",
        "\u0131"
      ],
      [
        "\u00e0\u00a4",
        "\u013c"
      ],
      [
        "\u00e0\u00a4",
        "\u00a7"
      ],
      [
        "\u00e0\u00a4",
        "\u013f"
      ]
    ]
  }
}
